#include "fscores.ih"

Dvector Fscores::s_NLavg{ .39, 2.18, .95, .82, 1.18 };

double Fscores::s_otherSDinv[] = 
{ 
    1/0.69, 1/0.93, 1/0.98, 1/0.84, 1/0.85, 1/1.01, 1/0.81, 1/1.11, 1/1.09,
    1/0.81, 1/1.10, 1/0.79, 1/1.17, 1/1.15, 1/0.83, 1/0.96, 1/0.76, 1/1.28,
    1/0.93, 1/1.09, 1/1.16, 1/0.97, 1/1.14, 1/1.11, 1/0.92, 1/0.79, 1/0.86,
    1/1.16, 1/1.00, 1/0.86, 1/0.80, 1/0.94, 1/1.18, 1/0.91, 1/0.96, 1/1.21,
    1/0.98, 1/0.99, 1/1.02, 1/0.85, 1/1.07, 1/0.87, 1/0.87, 1/0.90, 1/0.75,
    1/1.10, 1/0.73, 1/1.06, 1/0.86, 1/0.90, 1/0.86, 1/0.85, 1/0.91, 1/1.12,
    1/0.89, 1/0.95, 1/0.76, 1/1.03, 1/0.84, 1/0.86, 1/0.89, 1/0.87, 1/0.98,
    1/0.95, 1/0.92, 1/0.96, 1/0.78, 1/1.03, 1/0.87, 1/0.92, 1/0.89, 1/0.91,
    1/0.90, 1/0.89, 1/0.88, 1/0.93, 1/1.03, 1/0.98, 1/0.89, 1/0.91, 1/1.01,
    1/1.07, 1/0.82, 1/0.94, 1/0.82, 1/1.05, 1/0.70, 1/0.84, 1/0.87, 1/1.01,
    1/0.91, 1/0.81, 1/1.01, 1/1.06, 1/0.92, 1/0.82, 1/1.09, 1/0.89, 1/0.85,
    1/0.91,
};


double Fscores::s_selfSDinv[] = 
{ 
    1/0.88, 1/0.88, 1/0.99, 1/0.88, 1/0.90, 1/0.96, 1/0.71, 1/0.93, 1/0.96,
    1/0.76, 1/0.96, 1/0.80, 1/0.98, 1/0.96, 1/0.83, 1/0.94, 1/0.68, 1/1.19,
    1/0.81, 1/0.99, 1/1.05, 1/0.86, 1/1.03, 1/1.06, 1/0.84, 1/0.79, 1/0.76,
    1/1.08, 1/0.95, 1/0.85, 1/0.94, 1/0.90, 1/1.15, 1/0.95, 1/0.93, 1/1.26,
    1/0.90, 1/0.83, 1/1.02, 1/0.89, 1/1.16, 1/0.77, 1/0.76, 1/0.85, 1/0.74,
    1/0.93, 1/0.71, 1/1.00, 1/0.74, 1/0.87, 1/0.82, 1/0.78, 1/0.88, 1/0.99,
    1/0.85, 1/0.98, 1/0.73, 1/0.90, 1/0.79, 1/0.87, 1/0.95, 1/0.86, 1/0.95,
    1/0.93, 1/0.85, 1/0.89, 1/0.72, 1/0.94, 1/0.77, 1/0.90, 1/1.04, 1/0.89,
    1/0.86, 1/0.73, 1/0.82, 1/0.93, 1/1.11, 1/0.88, 1/0.91, 1/0.96, 1/0.99,
    1/0.99, 1/0.67, 1/0.89, 1/0.77, 1/1.03, 1/0.70, 1/0.78, 1/0.83, 1/0.90,
    1/0.92, 1/0.94, 1/0.95, 1/1.04, 1/0.91, 1/0.82, 1/0.94, 1/0.85, 1/0.81,
    1/0.97,
};

//  Extraversie  Mildheid  Ordelijkh. Emot.Stab. Autonomie

double Fscores::s_weights[Enum::N_FACTORS][Enum::N_QUESTIONS] = 
{
    //  Extraversie
    {
       0.07581097477235,
       0.02722858597739,
      -0.00534166579153,
       0.01272518255604,
      -0.00850513697128,
       0.07924965599169,
       0.02957099157101,
      -0.00972190418873,
       0.00545289184859,
      -0.00238796365222,
      -0.07518822347242,
       0.03634263937848,
      -0.01831340284030,
      -0.01653887470491,
      -0.04898140303747,
      -0.05401257524075,
      -0.02730931865182,
      -0.02965541750010,
      -0.01796573104728,
      -0.00923026932752,
      -0.06158612675783,
      -0.05869811789805,
      -0.04033338535399,
      -0.00398845408965,
       0.01479745945473,
       0.03713017181118,
      -0.01207459532525,
       0.01048238035999,
      -0.05345175247116,
      -0.01380123382625,
      -0.09125620902094,
      -0.02811479385101,
      -0.03919525183947,
      -0.04920192777840,
      -0.02902603808316,
       0.07413878900625,
      -0.03011635631686,
       0.00022346951404,
      -0.01225439605470,
      -0.01058002211763,
       0.08873478791913,
       0.02606862802333,
      -0.01431639208769,
      -0.01905266187929,
      -0.05315340424619,
      -0.06130799651992,
      -0.02090891341563,
      -0.02092778790906,
      -0.00918063405980,
      -0.00255730263230,
       0.06768271635039,
      -0.01320027085305,
      -0.03069939461003,
       0.01841224453569,
      -0.00947166928525,
      -0.10816946459588,
       0.03058342490243,
      -0.00184990242482,
       0.01264481319548,
       0.00587703578474,
       0.07035531383047,
       0.02964092081995,
      -0.02427277361696,
      -0.02714900780868,
      -0.02214420184595,
      -0.07813075278599,
       0.02033118365402,
      -0.01501466680099,
      -0.05564392795853,
       0.03127608719685,
      -0.09640967663453,
      -0.00194469669005,
      -0.01342486422459,
      -0.00191283708272,
       0.01837567253763,
       0.06871005164557,
       0.01481917925014,
       0.01924935838003,
       0.00581584944412,
      -0.00565786650297,
      -0.08518497123040,
       0.06434350666719,
      -0.01011766254448,
      -0.02306081475153,
      -0.00965780684644,
      -0.07226368840250,
      -0.02026724426723,
      -0.02837638014765,
      -0.01849478032429,
       0.02374787900656,
       0.06963793456054,
       0.00438573813717,
      -0.01771000377137,
      -0.01207416168105,
      -0.00253423706299,
       0.05128370629741,
       0.05273205337697,
      -0.02787349617534,
      -0.04846698228355,
       0.01960723243664,
    },
    //  Mildheid  
    {
       0.04724858848820, 
      -0.04872134473083, 
       0.03487638166242, 
       0.00238390213758, 
      -0.01117427950101, 
      -0.00308548485737, 
       0.06823469100987, 
      -0.02793666396394, 
       0.00116268510826, 
      -0.04065050311478, 
       0.05204999182625, 
       0.08446847940793, 
      -0.03272366019853, 
       0.00150070266635, 
       0.01590646673089, 
       0.02020249163082, 
       0.09773166636025, 
       0.02273323624206, 
       0.02976665560151, 
      -0.05080725569349, 
       0.04614037605016, 
       0.08504675626307, 
       0.01217549729867, 
       0.02364660730433, 
      -0.00652729024758, 
       0.02108835787786, 
       0.08385159831926, 
       0.01297358855761, 
      -0.00554028465707, 
       0.01206556914786, 
      -0.01457148508904, 
      -0.07991208798339, 
       0.01620799322864, 
       0.00648363749334, 
      -0.01960878973301, 
      -0.01752488542098, 
       0.05921447016365, 
      -0.00433605456501, 
       0.01414406278409, 
       0.00961775492419, 
       0.00767865541720, 
      -0.05788565480870, 
       0.01985293986874, 
       0.00851210324399, 
       0.05452921977230, 
      -0.00376018587899, 
       0.11274271298810, 
      -0.04140431218646, 
       0.01018677348230, 
      -0.03214488740399, 
       0.02956235046651, 
      -0.08694097442835, 
      -0.03694573503522, 
       0.03154464010754, 
      -0.01220642230496, 
       0.00890536448712, 
       0.09700747976474, 
      -0.01978565611332, 
       0.02539584265570, 
       0.01350872950465, 
       0.01557802689428, 
      -0.05624631974698, 
       0.02616523165707, 
      -0.00692351882417, 
       0.00448936949183, 
      -0.01854655298385, 
       0.08561713671452, 
      -0.04305799842925, 
       0.03276514818842, 
      -0.01858606488984, 
       0.00678854609064, 
      -0.10356973789112, 
      -0.00723344702950, 
      -0.01297882805739, 
      -0.01424587270223, 
      -0.00397936817139, 
      -0.08876488428388, 
       0.00563937481266, 
       0.00669863848379, 
      -0.01554081909760, 
      -0.01165660856813, 
      -0.07907322305498, 
       0.04566380863367, 
       0.01965371144915, 
      -0.00767709416871, 
       0.01853821015902, 
       0.08548400424510, 
       0.01680414733284, 
      -0.03258340156357, 
       0.00781925995804, 
       0.02187738087859, 
      -0.10022964710035, 
       0.01261023700458, 
       0.02603678027790, 
       0.01206782536889, 
       0.02826589450545, 
      -0.08216043754528, 
      -0.00094812959999, 
       0.00478488672523, 
      -0.02079392047107, 
    },
    //  Ordelijkh
    {
     -0.01696624482541,
      0.01617257273352,
     -0.07726933238389,
     -0.00139448073739,
      0.04417648223761,
     -0.00684180327441,
      0.00096777090600,
      0.12894533826858,
     -0.02988046094450,
      0.02018016703629,
     -0.00531733769497,
     -0.00459521481391,
      0.11907360118289,
      0.01336978494370,
     -0.00314719018031,
     -0.00690907707850,
     -0.00431123603764,
     -0.09815362313063,
     -0.02523647300333,
      0.02823673071106,
     -0.02339610776782,
      0.00382761649480,
     -0.08381160785765,
      0.00554543519815,
     -0.01509686343796,
     -0.01178089169366,
     -0.03258772261313,
     -0.09103545588034,
      0.01015897477797,
      0.00415522540815,
     -0.00932126121404,
      0.00958275975748,
     -0.09313819409592,
      0.00089419770910,
     -0.04430934456196,
     -0.01286046089733,
      0.00812480888969,
      0.08575145473570,
      0.02136770318721,
      0.00614864838221,
      0.00213747213644,
     -0.00499025875391,
      0.07360938179221,
     -0.00815763884084,
     -0.00733961327733,
      0.00895292303862,
     -0.01183505590921,
      0.13048528911961,
     -0.00829984527580,
      0.02452942610734,
     -0.01449487291177,
      0.01548142392454,
     -0.03985899874743,
     -0.00630104454421,
      0.03219509603603,
     -0.02439001701323,
     -0.00716514654394,
      0.10201626932579,
     -0.00888916839199,
      0.00247116209319,
      0.00682572858627,
     -0.02480371716985,
     -0.08504061730261,
     -0.01076160635289,
      0.01296976281596,
     -0.00662057244040,
     -0.00299124582521,
      0.11521541881435,
      0.02016563560600,
      0.05514551085496,
     -0.01662750369099,
      0.02209853121479,
      0.05301328554292,
      0.02297213260049,
      0.02222895452071,
      0.01417122554923,
      0.03339713791284,
     -0.04493651181774,
      0.01440732787741,
     -0.02910486944907,
     -0.01786994202374,
      0.00854413856592,
      0.03919287083799,
     -0.01018250915533,
      0.03954151288610,
     -0.00457703375547,
     -0.01960506508036,
      0.07589614526525,
      0.01601471957407,
     -0.01821188215309,
      0.00745946376149,
      0.03768072237398,
     -0.08115570189190,
     -0.01073980020861,
     -0.03637546700346,
     -0.00357181326932,
      0.01726416963685,
     -0.06938134417274,
      0.00900972268205,
     -0.01219456967933,
    },
    //  Emot.Stab. 
    { 
     -0.04248954131871,
     -0.06355087472017,
      0.01676725956417,
     -0.06813254634462,
      0.04092469888308,
     -0.01030081997777,
     -0.05378815397143,
     -0.00240202111010,
      0.08417535891105,
      0.04086863045415,
      0.02090811262521,
     -0.05188436165786,
      0.00452573624605,
     -0.08049256855723,
     -0.00235314882953,
     -0.05072688700038,
     -0.03384268964200,
      0.01257678175204,
      0.08004189682687,
     -0.00913127954248,
      0.01276599586191,
      0.02359339940414,
     -0.02885786847690,
     -0.04508250813693,
     -0.00177310365364,
      0.04153041453789,
      0.01619974542222,
     -0.01836159945735,
      0.07005123013003,
     -0.02459608051310,
      0.01104343041395,
      0.04679734415261,
      0.03192282212023,
     -0.08080749887336,
      0.01465526946508,
      0.01464383280724,
      0.03476142792267,
     -0.01459583178158,
     -0.08324417321780,
      0.03233730704860,
     -0.03181380835609,
     -0.04100249416097,
      0.04007574506836,
      0.09763104557730,
      0.01257760521800,
      0.00583591649280,
     -0.03154016525971,
      0.01372760411995,
      0.05368888454996,
     -0.01667278167068,
     -0.00153146769100,
      0.03741103378047,
      0.01716119466742,
     -0.05967060786151,
      0.03503675147559,
     -0.00843090715045,
     -0.05601502610287,
     -0.02079393640232,
      0.08872976801200,
     -0.02750648137235,
     -0.03589121843212,
     -0.00316045153748,
      0.01169381754688,
      0.11005464537875,
      0.04002403401106,
      0.01119154226066,
     -0.03886858764269,
      0.03173172677112,
      0.07091773756152,
      0.05449460702034,
      0.00585517050666,
     -0.00381559430436,
      0.00863405307666,
      0.04584330995103,
     -0.02246073170506,
     -0.00000045528066,
     -0.01449131263770,
     -0.01144305475460,
     -0.06480054487982,
     -0.00982569313520,
      0.00685523537738,
     -0.02889512979727,
     -0.02725820839096,
     -0.10040273736878,
      0.01407872791657,
      0.00688703005580,
     -0.01215623555249,
     -0.01821231661533,
     -0.04687068262224,
     -0.02025122956303,
     -0.00251443614472,
     -0.00958287853745,
     -0.02160897679898,
     -0.10416480065709,
     -0.03639319117953,
      0.02786474407655,
      0.00243437185025,
      0.01406573880245,
      0.07953487015427,
     -0.03815053816943,
    },
    //  Autonomie
    {
     -0.01869530451037,
      0.01289440431440,
     -0.03609115722997,
      0.00724004476179,
     -0.08648419744010,
     -0.02178536107100,
      0.03887305041567,
     -0.02103708774107,
     -0.07139199369019,
     -0.10655451939994,
     -0.00147505623406,
      0.02524152270557,
     -0.01513271838741,
      0.01225732772488,
      0.09314294164757,
      0.02606002793568,
      0.04680177938233,
      0.00605648801121,
     -0.01561649079947,
      0.07800090455642,
      0.01967018211066,
     -0.00632081429383,
      0.10124614157872,
     -0.02402554846146,
     -0.05874014396297,
     -0.02817412002288,
      0.02441205824859,
      0.04604024956605,
      0.01018845574626,
     -0.05176129023423,
      0.03741950278398,
     -0.03977410683993,
     -0.00490433989244,
      0.05485539300485,
      0.04848494967274,
     -0.05801696332263,
     -0.03007051875596,
      0.02485827954345,
      0.00376437728700,
     -0.11570245042713,
     -0.05634338135456,
      0.00347735749672,
     -0.04977814648164,
     -0.03463606740510,
      0.06235296908409,
     -0.02787306824979,
      0.03628829706458,
     -0.02501948819162,
      0.02398170682716,
      0.07992673051001,
     -0.01535089514177,
     -0.02976245615060,
      0.03106933538248,
     -0.01657760448763,
     -0.09759410009932,
      0.04885458539608,
      0.02607253969093,
      0.00551284422253,
     -0.05772933969265,
     -0.05892473509622,
     -0.00494191091130,
     -0.00879272349654,
     -0.02273674364379,
     -0.04161555186047,
     -0.10575605229658,
      0.02156108015154,
      0.03020591875932,
     -0.06552074304368,
     -0.01186567357465,
     -0.12862517200619,
      0.05921371295427,
      0.02808881948334,
      0.01703812672445,
      0.03048450686139,
      0.06388948599903,
     -0.01786742475533,
      0.06455123374766,
     -0.04399722383431,
     -0.03122471792033,
      0.08747885495367,
      0.02356858614961,
      0.00324941879138,
      0.04970920029198,
      0.05659366335474,
      0.03355759436098,
     -0.02164161197159,
      0.05480549131616,
      0.05048756897036,
      0.00193391905530,
     -0.04801826120885,
     -0.03740872339163,
      0.01573967900005,
      0.06382998605883,
      0.06216062271926,
      0.09281601162017,
     -0.04500201733506,
     -0.02366253656522,
     -0.02163934937432,
      0.01239185200158,
      0.08198096033941,
    }
};
